// Số lượng lớp: 4
// Các lớp bao gồm: Cloudy, Rainy, Snowy, Sunny
const unsigned char toanvinh_model_tflite[] = {
  0x1c, 0x00, 0x00, 0x00, 0x54, 0x46, 0x4c, 0x33, 0x14, 0x00, 0x20, 0x00,
  0x1c, 0x00, 0x18, 0x00, 0x14, 0x00, 0x10, 0x00, 0x0c, 0x00, 0x00, 0x00,
  0x08, 0x00, 0x04, 0x00, 0x14, 0x00, 0x00, 0x00, 0x1c, 0x00, 0x00, 0x00,
  0x98, 0x00, 0x00, 0x00, 0xf0, 0x00, 0x00, 0x00, 0x80, 0x05, 0x00, 0x00,
  0x90, 0x05, 0x00, 0x00, 0x9c, 0x0b, 0x00, 0x00, 0x03, 0x00, 0x00, 0x00,
  0x01, 0x00, 0x00, 0x00, 0x10, 0x00, 0x00, 0x00, 0x00, 0x00, 0x0a, 0x00,
  0x10, 0x00, 0x0c, 0x00, 0x08, 0x00, 0x04, 0x00, 0x0a, 0x00, 0x00, 0x00,
  0x0c, 0x00, 0x00, 0x00, 0x1c, 0x00, 0x00, 0x00, 0x3c, 0x00, 0x00, 0x00,
  0x0f, 0x00, 0x00, 0x00, 0x73, 0x65, 0x72, 0x76, 0x69, 0x6e, 0x67, 0x5f,
  0x64, 0x65, 0x66, 0x61, 0x75, 0x6c, 0x74, 0x00, 0x01, 0x00, 0x00, 0x00,
  0x04, 0x00, 0x00, 0x00, 0x90, 0xff, 0xff, 0xff, 0x0a, 0x00, 0x00, 0x00,
  0x04, 0x00, 0x00, 0x00, 0x08, 0x00, 0x00, 0x00, 0x6f, 0x75, 0x74, 0x70,
  0x75, 0x74, 0x5f, 0x30, 0x00, 0x00, 0x00, 0x00, 0x01, 0x00, 0x00, 0x00,
  0x04, 0x00, 0x00, 0x00, 0x66, 0xfa, 0xff, 0xff, 0x04, 0x00, 0x00, 0x00,
  0x0c, 0x00, 0x00, 0x00, 0x6b, 0x65, 0x72, 0x61, 0x73, 0x5f, 0x74, 0x65,
  0x6e, 0x73, 0x6f, 0x72, 0x00, 0x00, 0x00, 0x00, 0x02, 0x00, 0x00, 0x00,
  0x34, 0x00, 0x00, 0x00, 0x04, 0x00, 0x00, 0x00, 0xdc, 0xff, 0xff, 0xff,
  0x0d, 0x00, 0x00, 0x00, 0x04, 0x00, 0x00, 0x00, 0x13, 0x00, 0x00, 0x00,
  0x43, 0x4f, 0x4e, 0x56, 0x45, 0x52, 0x53, 0x49, 0x4f, 0x4e, 0x5f, 0x4d,
  0x45, 0x54, 0x41, 0x44, 0x41, 0x54, 0x41, 0x00, 0x08, 0x00, 0x0c, 0x00,
  0x08, 0x00, 0x04, 0x00, 0x08, 0x00, 0x00, 0x00, 0x0c, 0x00, 0x00, 0x00,
  0x04, 0x00, 0x00, 0x00, 0x13, 0x00, 0x00, 0x00, 0x6d, 0x69, 0x6e, 0x5f,
  0x72, 0x75, 0x6e, 0x74, 0x69, 0x6d, 0x65, 0x5f, 0x76, 0x65, 0x72, 0x73,
  0x69, 0x6f, 0x6e, 0x00, 0x0e, 0x00, 0x00, 0x00, 0x8c, 0x04, 0x00, 0x00,
  0x84, 0x04, 0x00, 0x00, 0x54, 0x04, 0x00, 0x00, 0x34, 0x04, 0x00, 0x00,
  0xa4, 0x03, 0x00, 0x00, 0x94, 0x01, 0x00, 0x00, 0x04, 0x01, 0x00, 0x00,
  0xb4, 0x00, 0x00, 0x00, 0xac, 0x00, 0x00, 0x00, 0xa4, 0x00, 0x00, 0x00,
  0x9c, 0x00, 0x00, 0x00, 0x94, 0x00, 0x00, 0x00, 0x74, 0x00, 0x00, 0x00,
  0x04, 0x00, 0x00, 0x00, 0x1a, 0xfb, 0xff, 0xff, 0x04, 0x00, 0x00, 0x00,
  0x60, 0x00, 0x00, 0x00, 0x0c, 0x00, 0x00, 0x00, 0x08, 0x00, 0x0e, 0x00,
  0x08, 0x00, 0x04, 0x00, 0x08, 0x00, 0x00, 0x00, 0x10, 0x00, 0x00, 0x00,
  0x28, 0x00, 0x00, 0x00, 0x00, 0x00, 0x06, 0x00, 0x08, 0x00, 0x04, 0x00,
  0x06, 0x00, 0x00, 0x00, 0x04, 0x00, 0x00, 0x00, 0x01, 0x00, 0x00, 0x00,
  0xea, 0x03, 0x00, 0x00, 0x0c, 0x00, 0x18, 0x00, 0x14, 0x00, 0x10, 0x00,
  0x0c, 0x00, 0x04, 0x00, 0x0c, 0x00, 0x00, 0x00, 0x81, 0xd1, 0x90, 0x8a,
  0xf7, 0x88, 0x0b, 0xdc, 0x02, 0x00, 0x00, 0x00, 0x02, 0x00, 0x00, 0x00,
  0x04, 0x00, 0x00, 0x00, 0x06, 0x00, 0x00, 0x00, 0x32, 0x2e, 0x32, 0x31,
  0x2e, 0x30, 0x00, 0x00, 0x86, 0xfb, 0xff, 0xff, 0x04, 0x00, 0x00, 0x00,
  0x10, 0x00, 0x00, 0x00, 0x31, 0x2e, 0x35, 0x2e, 0x30, 0x00, 0x00, 0x00,
  0x00, 0x00, 0x00, 0x00, 0x00, 0x00, 0x00, 0x00, 0x44, 0xf6, 0xff, 0xff,
  0x48, 0xf6, 0xff, 0xff, 0x4c, 0xf6, 0xff, 0xff, 0x50, 0xf6, 0xff, 0xff,
  0xb2, 0xfb, 0xff, 0xff, 0x04, 0x00, 0x00, 0x00, 0x40, 0x00, 0x00, 0x00,
  0xfe, 0x8f, 0x42, 0x3e, 0x9b, 0xbd, 0xc4, 0xbe, 0x77, 0x35, 0x60, 0x3d,
  0x09, 0xce, 0x0a, 0xbf, 0x31, 0x1a, 0x81, 0xbe, 0xa5, 0x82, 0xa8, 0x3e,
  0x8c, 0x7f, 0x5a, 0xbe, 0xb8, 0x81, 0x26, 0x3f, 0xea, 0x99, 0x4b, 0xbf,
  0x85, 0xdd, 0x22, 0x3f, 0x12, 0x15, 0x07, 0x3f, 0xde, 0x0d, 0xb0, 0x3d,
  0x4b, 0xeb, 0xe5, 0xbe, 0x2d, 0xf2, 0x9e, 0xbe, 0x2b, 0xf4, 0x91, 0x3e,
  0x40, 0x73, 0x5d, 0x3f, 0xfe, 0xfb, 0xff, 0xff, 0x04, 0x00, 0x00, 0x00,
  0x80, 0x00, 0x00, 0x00, 0x69, 0x85, 0x06, 0x3f, 0xf9, 0xa1, 0x66, 0x3e,
  0x22, 0xf5, 0x6f, 0xbf, 0x67, 0x7b, 0x05, 0x3e, 0x32, 0x96, 0x51, 0xbf,
  0x1b, 0x62, 0x4d, 0xbd, 0x87, 0xd5, 0xf6, 0xbe, 0xc1, 0x58, 0x65, 0x3f,
  0x71, 0xfd, 0x01, 0xbf, 0xef, 0xb5, 0xe4, 0x3c, 0x00, 0x40, 0x8b, 0x3f,
  0xb4, 0xdd, 0xa3, 0x3d, 0x27, 0xdd, 0x57, 0x3f, 0xf6, 0x48, 0x46, 0xbf,
  0x0d, 0xc2, 0x10, 0x3f, 0x42, 0x6b, 0x0c, 0x3f, 0xfb, 0x1f, 0x53, 0xbf,
  0x3b, 0x08, 0x21, 0xbe, 0x7d, 0x39, 0x21, 0xbf, 0x1f, 0x4a, 0x1e, 0x3f,
  0x78, 0x5e, 0x1d, 0x3e, 0x5b, 0x1d, 0x0d, 0xbf, 0xc5, 0x3b, 0x81, 0x3e,
  0x4f, 0x4c, 0x30, 0xbf, 0x22, 0xec, 0x86, 0x3d, 0xa2, 0xf7, 0x1c, 0xbf,
  0x20, 0x36, 0x26, 0xbf, 0xd8, 0x03, 0x39, 0xbc, 0x46, 0x89, 0xda, 0xbd,
  0x49, 0x56, 0x17, 0xbf, 0xd6, 0x92, 0x13, 0x3f, 0x17, 0xfb, 0xe9, 0xbd,
  0x8a, 0xfc, 0xff, 0xff, 0x04, 0x00, 0x00, 0x00, 0x00, 0x02, 0x00, 0x00,
  0x5e, 0x80, 0x99, 0x3e, 0x01, 0x4a, 0xef, 0xbe, 0x23, 0x3b, 0x28, 0x3f,
  0x68, 0xdc, 0xdf, 0xbe, 0x60, 0x92, 0x64, 0xbe, 0x1d, 0xa8, 0x7a, 0xbf,
  0x5d, 0xa9, 0xf5, 0xbe, 0xd4, 0x69, 0x88, 0x3e, 0x55, 0x4d, 0x3a, 0x3f,
  0xe0, 0xcb, 0x38, 0xbe, 0xce, 0x65, 0x9a, 0x3e, 0x58, 0x38, 0x4f, 0x3e,
  0xe5, 0x8e, 0x14, 0xbf, 0x39, 0x3e, 0x55, 0xbf, 0x3b, 0xe3, 0x24, 0xbc,
  0xf3, 0xc6, 0x06, 0x3f, 0xde, 0x1a, 0xae, 0xbe, 0x38, 0x08, 0xfd, 0x3e,
  0xcf, 0x4b, 0x43, 0x3f, 0x27, 0xdc, 0x85, 0xbf, 0xd5, 0xb9, 0x95, 0x3d,
  0x12, 0x28, 0x80, 0xbe, 0xb9, 0xf2, 0xed, 0xbe, 0x88, 0x84, 0x91, 0x3e,
  0x36, 0xda, 0xc5, 0xbf, 0x2a, 0x31, 0xec, 0x3e, 0x37, 0xe2, 0x0c, 0xbd,
  0x1f, 0x84, 0x0e, 0xbd, 0xd0, 0x45, 0xc9, 0x3e, 0x56, 0xc8, 0xef, 0xbe,
  0xe3, 0x91, 0x17, 0x3e, 0x36, 0xc9, 0xa9, 0xbe, 0xbe, 0xbe, 0x91, 0xbf,
  0x89, 0x81, 0x58, 0x3e, 0x26, 0x34, 0x1a, 0x3f, 0xb5, 0x57, 0x72, 0x3e,
  0x86, 0x62, 0x57, 0x3e, 0xf8, 0x84, 0xf0, 0xbd, 0x7d, 0xfc, 0x28, 0xbd,
  0x86, 0x76, 0x24, 0x3c, 0xf7, 0x03, 0x0b, 0xc0, 0xe9, 0x9d, 0x2a, 0x3d,
  0xa9, 0x41, 0x2b, 0x3f, 0x20, 0xae, 0x96, 0xbf, 0xc7, 0x99, 0x38, 0xbf,
  0x29, 0xab, 0x82, 0x3e, 0x71, 0xd3, 0xcc, 0xbe, 0xcc, 0x35, 0x47, 0xbf,
  0xf7, 0x8d, 0x31, 0xbf, 0xec, 0x62, 0xa1, 0xbe, 0xfd, 0xee, 0x8e, 0x3e,
  0x79, 0xd5, 0x69, 0xbf, 0x02, 0x79, 0xf8, 0x3b, 0x32, 0x86, 0xa9, 0xbe,
  0xe2, 0x06, 0x03, 0xbf, 0xe1, 0x62, 0x30, 0xbf, 0x6e, 0x3c, 0x0b, 0x3e,
  0xc0, 0x67, 0x3e, 0x3e, 0xd8, 0xc0, 0x59, 0x3f, 0xbc, 0xb2, 0xec, 0x3e,
  0xf4, 0x75, 0x34, 0xbf, 0xee, 0x34, 0xa0, 0xbd, 0xa0, 0x62, 0x7d, 0x3e,
  0xb6, 0xe3, 0x3b, 0x3f, 0xc6, 0xb3, 0xe6, 0xbd, 0x86, 0xac, 0x93, 0xbe,
  0x6a, 0x2f, 0xeb, 0xbe, 0x92, 0x50, 0x24, 0xbe, 0x74, 0xbc, 0x41, 0x3e,
  0xbb, 0x6f, 0x33, 0xbe, 0xd1, 0xd4, 0xb8, 0x3d, 0x59, 0xc8, 0xa1, 0x3e,
  0x0d, 0xd7, 0x70, 0x3f, 0x1b, 0xa1, 0xe8, 0x3d, 0x15, 0xb7, 0x0e, 0xbf,
  0x61, 0x1a, 0x2d, 0x3f, 0x52, 0xf7, 0xb9, 0xbe, 0xf9, 0xa2, 0x55, 0x3e,
  0x4b, 0x82, 0x50, 0x3f, 0x87, 0xf5, 0xdd, 0x3e, 0xa3, 0x2b, 0xe1, 0xbe,
  0xce, 0x36, 0xe4, 0x3e, 0xda, 0x81, 0xc4, 0x3e, 0xa7, 0x45, 0xc8, 0x3c,
  0xe7, 0x08, 0xa2, 0x3e, 0x0e, 0xe3, 0x77, 0x3e, 0xd0, 0x0b, 0x0e, 0x3f,
  0x12, 0xc0, 0x95, 0xbe, 0x3b, 0x96, 0x00, 0xc0, 0x55, 0xba, 0x28, 0x3e,
  0x18, 0xed, 0x07, 0xbd, 0xcb, 0x5d, 0x88, 0x3e, 0x31, 0x2c, 0x8e, 0x3f,
  0x8e, 0x25, 0xb9, 0xbe, 0xaa, 0xab, 0x07, 0x3f, 0xc8, 0xa4, 0x7a, 0xbf,
  0x2f, 0xf3, 0x1c, 0xbe, 0x3a, 0x24, 0x9a, 0xbf, 0xa1, 0xa9, 0x82, 0x3e,
  0x89, 0xd4, 0xa0, 0xbe, 0xb2, 0x14, 0xe5, 0xbf, 0x1f, 0xd8, 0x06, 0xbf,
  0xed, 0xac, 0x1b, 0xbf, 0x1f, 0x77, 0x43, 0x3f, 0x3c, 0x77, 0x48, 0x3e,
  0xff, 0xf5, 0x89, 0x3e, 0x2b, 0x4d, 0x11, 0xbe, 0xe7, 0x9b, 0x62, 0xbe,
  0x59, 0xdc, 0x51, 0xbf, 0x95, 0x9e, 0x06, 0xc0, 0xf7, 0xc0, 0x27, 0xbe,
  0x5c, 0x5a, 0x3c, 0x3f, 0x0f, 0x1e, 0xc9, 0xbe, 0x8e, 0xef, 0x19, 0x3e,
  0xea, 0x9c, 0xa5, 0x3e, 0x1f, 0x8e, 0x31, 0x3f, 0x3a, 0xf8, 0xa8, 0x3e,
  0x70, 0x3c, 0x24, 0x3f, 0xfc, 0xc9, 0x03, 0xbf, 0xfc, 0x6c, 0x84, 0xbd,
  0x66, 0x53, 0xb5, 0xbf, 0x24, 0x5b, 0xfa, 0xbd, 0x63, 0x63, 0x02, 0x3e,
  0x88, 0x8a, 0x4c, 0xbe, 0xac, 0x87, 0xd7, 0x3d, 0x91, 0x0b, 0xb8, 0x3e,
  0x26, 0x3f, 0xe6, 0x3d, 0x68, 0x3a, 0x24, 0x3f, 0x96, 0xfe, 0xff, 0xff,
  0x04, 0x00, 0x00, 0x00, 0x80, 0x00, 0x00, 0x00, 0xa0, 0x71, 0x21, 0x3f,
  0x8c, 0x7b, 0x17, 0xbe, 0x24, 0xf8, 0x16, 0xbf, 0x54, 0x89, 0x52, 0x3f,
  0x45, 0xd4, 0xbb, 0xbe, 0xe6, 0x04, 0x2d, 0xbf, 0x87, 0xd2, 0x3c, 0x3f,
  0x82, 0x6d, 0x84, 0xbd, 0x67, 0x86, 0x84, 0x3f, 0xf5, 0xd8, 0x4b, 0x3f,
  0xd4, 0x8a, 0xec, 0xbf, 0x7c, 0xa3, 0x61, 0xbf, 0x07, 0xfa, 0x2b, 0x3f,
  0xa8, 0x8a, 0x31, 0x3f, 0xbf, 0xfd, 0x66, 0x3f, 0xbe, 0xbe, 0x79, 0xbf,
  0x0d, 0x70, 0x10, 0xbf, 0x26, 0xbe, 0xae, 0x3f, 0x78, 0x46, 0xde, 0x3f,
  0xbf, 0x40, 0x73, 0xbd, 0xb6, 0x65, 0x42, 0xbf, 0xd6, 0xe9, 0x96, 0x3f,
  0xeb, 0x51, 0x8c, 0xbf, 0xc6, 0x61, 0xae, 0x3e, 0xe6, 0x93, 0xe5, 0xbf,
  0x3a, 0x98, 0xbf, 0xbe, 0x9f, 0x66, 0xd8, 0xbd, 0xeb, 0xb5, 0x77, 0x3f,
  0x48, 0x80, 0x49, 0x3f, 0x1d, 0x69, 0x0d, 0x3e, 0xe8, 0x9e, 0x6e, 0x3e,
  0x50, 0xb6, 0xaf, 0x3d, 0x22, 0xff, 0xff, 0xff, 0x04, 0x00, 0x00, 0x00,
  0x10, 0x00, 0x00, 0x00, 0x2f, 0xd7, 0xce, 0xbd, 0x2e, 0xa0, 0x87, 0x3e,
  0x70, 0x19, 0x27, 0x3d, 0xb4, 0x21, 0x2a, 0xbe, 0x3e, 0xff, 0xff, 0xff,
  0x04, 0x00, 0x00, 0x00, 0x20, 0x00, 0x00, 0x00, 0x34, 0xce, 0xe9, 0x3e,
  0x04, 0x60, 0x3a, 0x3f, 0x62, 0x51, 0x05, 0x3e, 0x3b, 0x82, 0x46, 0x3f,
  0xef, 0x87, 0x3c, 0x3e, 0x7d, 0xa1, 0xcd, 0x3d, 0x97, 0x2e, 0x31, 0x3f,
  0x8b, 0xf6, 0xc0, 0xbd, 0x0c, 0xfa, 0xff, 0xff, 0x10, 0xfa, 0xff, 0xff,
  0x0f, 0x00, 0x00, 0x00, 0x4d, 0x4c, 0x49, 0x52, 0x20, 0x43, 0x6f, 0x6e,
  0x76, 0x65, 0x72, 0x74, 0x65, 0x64, 0x2e, 0x00, 0x01, 0x00, 0x00, 0x00,
  0x14, 0x00, 0x00, 0x00, 0x00, 0x00, 0x0e, 0x00, 0x18, 0x00, 0x14, 0x00,
  0x10, 0x00, 0x0c, 0x00, 0x08, 0x00, 0x04, 0x00, 0x0e, 0x00, 0x00, 0x00,
  0x14, 0x00, 0x00, 0x00, 0x1c, 0x00, 0x00, 0x00, 0x34, 0x01, 0x00, 0x00,
  0x38, 0x01, 0x00, 0x00, 0x3c, 0x01, 0x00, 0x00, 0x04, 0x00, 0x00, 0x00,
  0x6d, 0x61, 0x69, 0x6e, 0x00, 0x00, 0x00, 0x00, 0x04, 0x00, 0x00, 0x00,
  0xdc, 0x00, 0x00, 0x00, 0x94, 0x00, 0x00, 0x00, 0x50, 0x00, 0x00, 0x00,
  0x14, 0x00, 0x00, 0x00, 0x00, 0x00, 0x0e, 0x00, 0x1a, 0x00, 0x14, 0x00,
  0x10, 0x00, 0x0c, 0x00, 0x0b, 0x00, 0x04, 0x00, 0x0e, 0x00, 0x00, 0x00,
  0x1c, 0x00, 0x00, 0x00, 0x00, 0x00, 0x00, 0x09, 0x1c, 0x00, 0x00, 0x00,
  0x20, 0x00, 0x00, 0x00, 0x01, 0x00, 0x00, 0x00, 0x00, 0x00, 0x06, 0x00,
  0x08, 0x00, 0x04, 0x00, 0x06, 0x00, 0x00, 0x00, 0x00, 0x00, 0x80, 0x3f,
  0x01, 0x00, 0x00, 0x00, 0x0a, 0x00, 0x00, 0x00, 0x01, 0x00, 0x00, 0x00,
  0x09, 0x00, 0x00, 0x00, 0xce, 0xff, 0xff, 0xff, 0x10, 0x00, 0x00, 0x00,
  0x00, 0x00, 0x00, 0x08, 0x0c, 0x00, 0x00, 0x00, 0x10, 0x00, 0x00, 0x00,
  0xd4, 0xfa, 0xff, 0xff, 0x01, 0x00, 0x00, 0x00, 0x09, 0x00, 0x00, 0x00,
  0x03, 0x00, 0x00, 0x00, 0x08, 0x00, 0x00, 0x00, 0x03, 0x00, 0x00, 0x00,
  0x02, 0x00, 0x00, 0x00, 0x00, 0x00, 0x0e, 0x00, 0x14, 0x00, 0x00, 0x00,
  0x10, 0x00, 0x0c, 0x00, 0x0b, 0x00, 0x04, 0x00, 0x0e, 0x00, 0x00, 0x00,
  0x10, 0x00, 0x00, 0x00, 0x00, 0x00, 0x00, 0x08, 0x10, 0x00, 0x00, 0x00,
  0x14, 0x00, 0x00, 0x00, 0xba, 0xff, 0xff, 0xff, 0x00, 0x00, 0x00, 0x01,
  0x01, 0x00, 0x00, 0x00, 0x08, 0x00, 0x00, 0x00, 0x03, 0x00, 0x00, 0x00,
  0x07, 0x00, 0x00, 0x00, 0x04, 0x00, 0x00, 0x00, 0x01, 0x00, 0x00, 0x00,
  0x00, 0x00, 0x0e, 0x00, 0x16, 0x00, 0x00, 0x00, 0x10, 0x00, 0x0c, 0x00,
  0x0b, 0x00, 0x04, 0x00, 0x0e, 0x00, 0x00, 0x00, 0x18, 0x00, 0x00, 0x00,
  0x00, 0x00, 0x00, 0x08, 0x18, 0x00, 0x00, 0x00, 0x1c, 0x00, 0x00, 0x00,
  0x00, 0x00, 0x06, 0x00, 0x08, 0x00, 0x07, 0x00, 0x06, 0x00, 0x00, 0x00,
  0x00, 0x00, 0x00, 0x01, 0x01, 0x00, 0x00, 0x00, 0x07, 0x00, 0x00, 0x00,
  0x03, 0x00, 0x00, 0x00, 0x00, 0x00, 0x00, 0x00, 0x05, 0x00, 0x00, 0x00,
  0x06, 0x00, 0x00, 0x00, 0x01, 0x00, 0x00, 0x00, 0x0a, 0x00, 0x00, 0x00,
  0x01, 0x00, 0x00, 0x00, 0x00, 0x00, 0x00, 0x00, 0x0b, 0x00, 0x00, 0x00,
  0x44, 0x04, 0x00, 0x00, 0xc4, 0x03, 0x00, 0x00, 0x60, 0x03, 0x00, 0x00,
  0x10, 0x03, 0x00, 0x00, 0xc0, 0x02, 0x00, 0x00, 0x74, 0x02, 0x00, 0x00,
  0x10, 0x02, 0x00, 0x00, 0x7c, 0x01, 0x00, 0x00, 0xe0, 0x00, 0x00, 0x00,
  0x60, 0x00, 0x00, 0x00, 0x04, 0x00, 0x00, 0x00, 0xfe, 0xfb, 0xff, 0xff,
  0x00, 0x00, 0x00, 0x01, 0x14, 0x00, 0x00, 0x00, 0x1c, 0x00, 0x00, 0x00,
  0x1c, 0x00, 0x00, 0x00, 0x0b, 0x00, 0x00, 0x00, 0x34, 0x00, 0x00, 0x00,
  0x02, 0x00, 0x00, 0x00, 0xff, 0xff, 0xff, 0xff, 0x04, 0x00, 0x00, 0x00,
  0xe8, 0xfb, 0xff, 0xff, 0x1b, 0x00, 0x00, 0x00, 0x53, 0x74, 0x61, 0x74,
  0x65, 0x66, 0x75, 0x6c, 0x50, 0x61, 0x72, 0x74, 0x69, 0x74, 0x69, 0x6f,
  0x6e, 0x65, 0x64, 0x43, 0x61, 0x6c, 0x6c, 0x5f, 0x31, 0x3a, 0x30, 0x00,
  0x02, 0x00, 0x00, 0x00, 0x01, 0x00, 0x00, 0x00, 0x04, 0x00, 0x00, 0x00,
  0x56, 0xfc, 0xff, 0xff, 0x00, 0x00, 0x00, 0x01, 0x14, 0x00, 0x00, 0x00,
  0x1c, 0x00, 0x00, 0x00, 0x1c, 0x00, 0x00, 0x00, 0x0a, 0x00, 0x00, 0x00,
  0x58, 0x00, 0x00, 0x00, 0x02, 0x00, 0x00, 0x00, 0xff, 0xff, 0xff, 0xff,
  0x04, 0x00, 0x00, 0x00, 0x40, 0xfc, 0xff, 0xff, 0x3c, 0x00, 0x00, 0x00,
  0x73, 0x65, 0x71, 0x75, 0x65, 0x6e, 0x74, 0x69, 0x61, 0x6c, 0x5f, 0x31,
  0x2f, 0x64, 0x65, 0x6e, 0x73, 0x65, 0x5f, 0x32, 0x5f, 0x31, 0x2f, 0x4d,
  0x61, 0x74, 0x4d, 0x75, 0x6c, 0x3b, 0x73, 0x65, 0x71, 0x75, 0x65, 0x6e,
  0x74, 0x69, 0x61, 0x6c, 0x5f, 0x31, 0x2f, 0x64, 0x65, 0x6e, 0x73, 0x65,
  0x5f, 0x32, 0x5f, 0x31, 0x2f, 0x42, 0x69, 0x61, 0x73, 0x41, 0x64, 0x64,
  0x00, 0x00, 0x00, 0x00, 0x02, 0x00, 0x00, 0x00, 0x01, 0x00, 0x00, 0x00,
  0x04, 0x00, 0x00, 0x00, 0xd2, 0xfc, 0xff, 0xff, 0x00, 0x00, 0x00, 0x01,
  0x14, 0x00, 0x00, 0x00, 0x1c, 0x00, 0x00, 0x00, 0x1c, 0x00, 0x00, 0x00,
  0x09, 0x00, 0x00, 0x00, 0x74, 0x00, 0x00, 0x00, 0x02, 0x00, 0x00, 0x00,
  0xff, 0xff, 0xff, 0xff, 0x08, 0x00, 0x00, 0x00, 0xbc, 0xfc, 0xff, 0xff,
  0x58, 0x00, 0x00, 0x00, 0x73, 0x65, 0x71, 0x75, 0x65, 0x6e, 0x74, 0x69,
  0x61, 0x6c, 0x5f, 0x31, 0x2f, 0x64, 0x65, 0x6e, 0x73, 0x65, 0x5f, 0x31,
  0x5f, 0x32, 0x2f, 0x4d, 0x61, 0x74, 0x4d, 0x75, 0x6c, 0x3b, 0x73, 0x65,
  0x71, 0x75, 0x65, 0x6e, 0x74, 0x69, 0x61, 0x6c, 0x5f, 0x31, 0x2f, 0x64,
  0x65, 0x6e, 0x73, 0x65, 0x5f, 0x31, 0x5f, 0x32, 0x2f, 0x52, 0x65, 0x6c,
  0x75, 0x3b, 0x73, 0x65, 0x71, 0x75, 0x65, 0x6e, 0x74, 0x69, 0x61, 0x6c,
  0x5f, 0x31, 0x2f, 0x64, 0x65, 0x6e, 0x73, 0x65, 0x5f, 0x31, 0x5f, 0x32,
  0x2f, 0x42, 0x69, 0x61, 0x73, 0x41, 0x64, 0x64, 0x00, 0x00, 0x00, 0x00,
  0x02, 0x00, 0x00, 0x00, 0x01, 0x00, 0x00, 0x00, 0x08, 0x00, 0x00, 0x00,
  0x6a, 0xfd, 0xff, 0xff, 0x00, 0x00, 0x00, 0x01, 0x14, 0x00, 0x00, 0x00,
  0x1c, 0x00, 0x00, 0x00, 0x1c, 0x00, 0x00, 0x00, 0x08, 0x00, 0x00, 0x00,
  0x6c, 0x00, 0x00, 0x00, 0x02, 0x00, 0x00, 0x00, 0xff, 0xff, 0xff, 0xff,
  0x10, 0x00, 0x00, 0x00, 0x54, 0xfd, 0xff, 0xff, 0x52, 0x00, 0x00, 0x00,
  0x73, 0x65, 0x71, 0x75, 0x65, 0x6e, 0x74, 0x69, 0x61, 0x6c, 0x5f, 0x31,
  0x2f, 0x64, 0x65, 0x6e, 0x73, 0x65, 0x5f, 0x31, 0x2f, 0x4d, 0x61, 0x74,
  0x4d, 0x75, 0x6c, 0x3b, 0x73, 0x65, 0x71, 0x75, 0x65, 0x6e, 0x74, 0x69,
  0x61, 0x6c, 0x5f, 0x31, 0x2f, 0x64, 0x65, 0x6e, 0x73, 0x65, 0x5f, 0x31,
  0x2f, 0x52, 0x65, 0x6c, 0x75, 0x3b, 0x73, 0x65, 0x71, 0x75, 0x65, 0x6e,
  0x74, 0x69, 0x61, 0x6c, 0x5f, 0x31, 0x2f, 0x64, 0x65, 0x6e, 0x73, 0x65,
  0x5f, 0x31, 0x2f, 0x42, 0x69, 0x61, 0x73, 0x41, 0x64, 0x64, 0x00, 0x00,
  0x02, 0x00, 0x00, 0x00, 0x01, 0x00, 0x00, 0x00, 0x10, 0x00, 0x00, 0x00,
  0x76, 0xfe, 0xff, 0xff, 0x00, 0x00, 0x00, 0x01, 0x10, 0x00, 0x00, 0x00,
  0x10, 0x00, 0x00, 0x00, 0x07, 0x00, 0x00, 0x00, 0x44, 0x00, 0x00, 0x00,
  0xd4, 0xfd, 0xff, 0xff, 0x36, 0x00, 0x00, 0x00, 0x73, 0x65, 0x71, 0x75,
  0x65, 0x6e, 0x74, 0x69, 0x61, 0x6c, 0x5f, 0x31, 0x2f, 0x64, 0x65, 0x6e,
  0x73, 0x65, 0x5f, 0x31, 0x2f, 0x52, 0x65, 0x6c, 0x75, 0x3b, 0x73, 0x65,
  0x71, 0x75, 0x65, 0x6e, 0x74, 0x69, 0x61, 0x6c, 0x5f, 0x31, 0x2f, 0x64,
  0x65, 0x6e, 0x73, 0x65, 0x5f, 0x31, 0x2f, 0x42, 0x69, 0x61, 0x73, 0x41,
  0x64, 0x64, 0x00, 0x00, 0x01, 0x00, 0x00, 0x00, 0x10, 0x00, 0x00, 0x00,
  0xd6, 0xfe, 0xff, 0xff, 0x00, 0x00, 0x00, 0x01, 0x10, 0x00, 0x00, 0x00,
  0x10, 0x00, 0x00, 0x00, 0x06, 0x00, 0x00, 0x00, 0x28, 0x00, 0x00, 0x00,
  0x34, 0xfe, 0xff, 0xff, 0x1b, 0x00, 0x00, 0x00, 0x73, 0x65, 0x71, 0x75,
  0x65, 0x6e, 0x74, 0x69, 0x61, 0x6c, 0x5f, 0x31, 0x2f, 0x64, 0x65, 0x6e,
  0x73, 0x65, 0x5f, 0x31, 0x2f, 0x4d, 0x61, 0x74, 0x4d, 0x75, 0x6c, 0x00,
  0x02, 0x00, 0x00, 0x00, 0x10, 0x00, 0x00, 0x00, 0x02, 0x00, 0x00, 0x00,
  0x1e, 0xff, 0xff, 0xff, 0x00, 0x00, 0x00, 0x01, 0x10, 0x00, 0x00, 0x00,
  0x10, 0x00, 0x00, 0x00, 0x05, 0x00, 0x00, 0x00, 0x2c, 0x00, 0x00, 0x00,
  0x7c, 0xfe, 0xff, 0xff, 0x1d, 0x00, 0x00, 0x00, 0x73, 0x65, 0x71, 0x75,
  0x65, 0x6e, 0x74, 0x69, 0x61, 0x6c, 0x5f, 0x31, 0x2f, 0x64, 0x65, 0x6e,
  0x73, 0x65, 0x5f, 0x31, 0x5f, 0x32, 0x2f, 0x4d, 0x61, 0x74, 0x4d, 0x75,
  0x6c, 0x00, 0x00, 0x00, 0x02, 0x00, 0x00, 0x00, 0x08, 0x00, 0x00, 0x00,
  0x10, 0x00, 0x00, 0x00, 0x6a, 0xff, 0xff, 0xff, 0x00, 0x00, 0x00, 0x01,
  0x10, 0x00, 0x00, 0x00, 0x10, 0x00, 0x00, 0x00, 0x04, 0x00, 0x00, 0x00,
  0x2c, 0x00, 0x00, 0x00, 0xc8, 0xfe, 0xff, 0xff, 0x1d, 0x00, 0x00, 0x00,
  0x73, 0x65, 0x71, 0x75, 0x65, 0x6e, 0x74, 0x69, 0x61, 0x6c, 0x5f, 0x31,
  0x2f, 0x64, 0x65, 0x6e, 0x73, 0x65, 0x5f, 0x32, 0x5f, 0x31, 0x2f, 0x4d,
  0x61, 0x74, 0x4d, 0x75, 0x6c, 0x00, 0x00, 0x00, 0x02, 0x00, 0x00, 0x00,
  0x04, 0x00, 0x00, 0x00, 0x08, 0x00, 0x00, 0x00, 0xb6, 0xff, 0xff, 0xff,
  0x00, 0x00, 0x00, 0x01, 0x10, 0x00, 0x00, 0x00, 0x10, 0x00, 0x00, 0x00,
  0x03, 0x00, 0x00, 0x00, 0x2c, 0x00, 0x00, 0x00, 0x14, 0xff, 0xff, 0xff,
  0x1e, 0x00, 0x00, 0x00, 0x73, 0x65, 0x71, 0x75, 0x65, 0x6e, 0x74, 0x69,
  0x61, 0x6c, 0x5f, 0x31, 0x2f, 0x64, 0x65, 0x6e, 0x73, 0x65, 0x5f, 0x32,
  0x5f, 0x31, 0x2f, 0x42, 0x69, 0x61, 0x73, 0x41, 0x64, 0x64, 0x00, 0x00,
  0x01, 0x00, 0x00, 0x00, 0x04, 0x00, 0x00, 0x00, 0x00, 0x00, 0x16, 0x00,
  0x18, 0x00, 0x14, 0x00, 0x00, 0x00, 0x10, 0x00, 0x0c, 0x00, 0x08, 0x00,
  0x00, 0x00, 0x00, 0x00, 0x00, 0x00, 0x07, 0x00, 0x16, 0x00, 0x00, 0x00,
  0x00, 0x00, 0x00, 0x01, 0x10, 0x00, 0x00, 0x00, 0x10, 0x00, 0x00, 0x00,
  0x02, 0x00, 0x00, 0x00, 0x48, 0x00, 0x00, 0x00, 0x74, 0xff, 0xff, 0xff,
  0x3a, 0x00, 0x00, 0x00, 0x73, 0x65, 0x71, 0x75, 0x65, 0x6e, 0x74, 0x69,
  0x61, 0x6c, 0x5f, 0x31, 0x2f, 0x64, 0x65, 0x6e, 0x73, 0x65, 0x5f, 0x31,
  0x5f, 0x32, 0x2f, 0x52, 0x65, 0x6c, 0x75, 0x3b, 0x73, 0x65, 0x71, 0x75,
  0x65, 0x6e, 0x74, 0x69, 0x61, 0x6c, 0x5f, 0x31, 0x2f, 0x64, 0x65, 0x6e,
  0x73, 0x65, 0x5f, 0x31, 0x5f, 0x32, 0x2f, 0x42, 0x69, 0x61, 0x73, 0x41,
  0x64, 0x64, 0x00, 0x00, 0x01, 0x00, 0x00, 0x00, 0x08, 0x00, 0x00, 0x00,
  0x00, 0x00, 0x16, 0x00, 0x1c, 0x00, 0x18, 0x00, 0x00, 0x00, 0x14, 0x00,
  0x10, 0x00, 0x0c, 0x00, 0x00, 0x00, 0x00, 0x00, 0x08, 0x00, 0x07, 0x00,
  0x16, 0x00, 0x00, 0x00, 0x00, 0x00, 0x00, 0x01, 0x14, 0x00, 0x00, 0x00,
  0x20, 0x00, 0x00, 0x00, 0x20, 0x00, 0x00, 0x00, 0x01, 0x00, 0x00, 0x00,
  0x3c, 0x00, 0x00, 0x00, 0x02, 0x00, 0x00, 0x00, 0xff, 0xff, 0xff, 0xff,
  0x02, 0x00, 0x00, 0x00, 0x04, 0x00, 0x04, 0x00, 0x04, 0x00, 0x00, 0x00,
  0x1e, 0x00, 0x00, 0x00, 0x73, 0x65, 0x72, 0x76, 0x69, 0x6e, 0x67, 0x5f,
  0x64, 0x65, 0x66, 0x61, 0x75, 0x6c, 0x74, 0x5f, 0x6b, 0x65, 0x72, 0x61,
  0x73, 0x5f, 0x74, 0x65, 0x6e, 0x73, 0x6f, 0x72, 0x3a, 0x30, 0x00, 0x00,
  0x02, 0x00, 0x00, 0x00, 0x01, 0x00, 0x00, 0x00, 0x02, 0x00, 0x00, 0x00,
  0x02, 0x00, 0x00, 0x00, 0x20, 0x00, 0x00, 0x00, 0x04, 0x00, 0x00, 0x00,
  0xf4, 0xff, 0xff, 0xff, 0x19, 0x00, 0x00, 0x00, 0x00, 0x00, 0x00, 0x19,
  0x0c, 0x00, 0x0c, 0x00, 0x0b, 0x00, 0x00, 0x00, 0x00, 0x00, 0x04, 0x00,
  0x0c, 0x00, 0x00, 0x00, 0x09, 0x00, 0x00, 0x00, 0x00, 0x00, 0x00, 0x09
};

